TRT-7200-EntropyCalibration2
input: 3f810204
321: 3d2f3d23
323: 3d1d3bf0
324: 3d1d3bf0
325: 3d3b15b8
333: 3d0765df
327: 3cb177c6
328: 3cdaf061
330: 3cdbb43c
331: 3c88597a
335: 3d0e74ec
336: 3cd66e2d
337: 3ccd1bfa
339: 3cc5c2e7
340: 3ce0a934
342: 3cd5d522
343: 3c926e6f
345: 3c926e6f
346: 3c794a80
347: 3cbff191
349: 3cb3db83
350: 3cc1077b
352: 3c96be50
353: 3cc7040f
355: 3c7b9004
356: 3c7b9004
357: 3ce8a407
365: 3cc45b1f
359: 3d08c7d7
360: 3d13139f
362: 3d01ff2d
363: 3c84743a
367: 3d382e12
368: 3d3bb9c7
369: 3cc275cb
371: 3c8d8002
372: 3d1b0e6b
374: 3cd04c02
375: 3d01d46d
377: 3d7aded6
378: 3ced03c5
379: 3cddc12b
381: 3c871637
382: 3ccd1da8
384: 3d044057
385: 3c9d2390
387: 3d5ee2e3
388: 3d5ee2e3
389: 3cd75ddf
391: 3cafe5a7
392: 3cdc2c06
394: 3c9c4e27
395: 3c818744
397: 3d0ee753
398: 3d0ee753
399: 3d2c660e
407: 3cacb5fb
401: 3d0dc520
402: 3cd0ac03
404: 3cbfaaaf
405: 3cc61ba5
409: 3d0a4264
410: 3d182b52
411: 3caa1ada
413: 3caa1ada
414: 3cafbfb1
416: 3c96d2d6
417: 3c975458
419: 3cef64a3
420: 3d0f90d0
421: 3cbd3444
423: 3cc7c879
424: 3d18058c
426: 3d34d931
427: 3c9a7118
429: 3cf2a117
430: 3cf2a117
431: 3ccf6a5e
433: 3ccf6a5e
434: 3cdafcbb
436: 3cd82f63
437: 3cc83b25
439: 3d1656fb
440: 3d1566a0
441: 3cca1b5b
443: 3cc9492d
444: 3ccecb73
446: 3cb01999
447: 3ca17c84
449: 3d0a7059
450: 3d237279
451: 3cf1a6b4
453: 3cef576d
454: 3cc8dbc3
456: 3cc89653
457: 3cc3a177
459: 3d278fef
460: 3d48d5cb
461: 3cff415b
469: 3c891be0
463: 3d09d881
464: 3cdae39d
466: 3cdb998e
467: 3c9e0a83
471: 3cd9a693
472: 3ca1f337
473: 3d02a45b
475: 3cf485c3
476: 3cfd845f
478: 3cb7ec01
479: 3cbd8786
481: 3cc179b1
482: 3cac73f8
483: 3d20a23a
485: 3d11764a
486: 3d22fec2
488: 3cdd39b0
489: 3dab8b39
491: 3dba84c1
492: 3dc92918
493: 3ce75cb4
494: 3ce75cb4
(Unnamed Layer* 131) [Shuffle]_output: 3ce75cb4
(Unnamed Layer* 132) [Fully Connected]_output: 3e45dff1
output: 3e45dff1
topk_layer_output_value: 3ec1580a
topk_layer_output_index: 41056d5b
